{"vocab": {"[PAD]": 0, "[UNK]": 1, "[CLS]": 2, "[SEP]": 3, "[MASK]": 4, "a": 5, "b": 6, "c": 7, "d": 8, "e": 9, "f": 10, "g": 11, "h": 12, "i": 13, "j": 14, "k": 15, "l": 16, "m": 17, "n": 18, "o": 19, "p": 20, "q": 21, "r": 22, "s": 23, "t": 24, "u": 25, "v": 26, "w": 27, "x": 28, "y": 29, "z": 30, "0": 31, "1": 32, "2": 33, "3": 34, "4": 35, "5": 36, "6": 37, "7": 38, "8": 39, "9": 40, "##e": 41, "##s": 42, "my": 43, "##t": 44, "co": 45, "pl": 46, "ple": 47, "plea": 48, "pleas": 49, "please": 50, "##ease": 51, "##ase": 52, "##se": 53, "hey": 54, "coa": 55, "coac": 56, "coach": 57, "coach,": 58, "##ach,": 59, "##ch,": 60, "##h,": 61, "##,": 62, "to": 63, "wha": 64, "wh": 65, "what": 66, "##d": 67, "##n": 68, "##ing": 69, "th": 70, "me": 71, "##y": 72, "##at": 73, "##te": 74, "the": 75, "##k": 76, "##ut": 77, "##out": 78, "##h": 79, "##r": 80, "pr": 81, "re": 82, "is": 83, "how": 84, "##ng": 85, "thi": 86, "for": 87, "go": 88, "this": 89, "##is": 90, "##er": 91, "##es": 92, "ba": 93, "##ck": 94, "tr": 95, "##ate": 96, "of": 97, "st": 98, "wo": 99, "wor": 100, "work": 101, "worko": 102, "in": 103, "##at's": 104, "##t's": 105, "##'s": 106, "workout": 107, "##rkout": 108, "##kout": 109, "sho": 110, "ca": 111, "##ch": 112, "sh": 113, "what'": 114, "goo": 115, "##le": 116, "good": 117, "what's": 118, "ch": 119, "ma": 120, "pre": 121, "##st": 122, "##re": 123, "se": 124, "##l": 125, "po": 126, "tra": 127, "do": 128, "rat": 129, "rec": 130, "an": 131, "ana": 132, "anal": 133, "analy": 134, "rate": 135, "ra": 136, "##g": 137, "##ning": 138, "mo": 139, "##od": 140, "we": 141, "##rt": 142, "##nd": 143, "lo": 144, "##ght": 145, "##ht": 146, "bod": 147, "ex": 148, "fi": 149, "bo": 150, "body": 151, "con": 152, "hi": 153, "su": 154, "##w": 155, "fat": 156, "le": 157, "##ter": 158, "cal": 159, "de": 160, "cor": 161, "pla": 162, "plan": 163, "he": 164, "##nch": 165, "lu": 166, "lun": 167, "set": 168, "##ss": 169, "##en": 170, "fo": 171, "br": 172, "trac": 173, "##-workout": 174, "##workout": 175, "##p": 176, "reco": 177, "track": 178, "pro": 179, "##in": 180, "ab": 181, "abo": 182, "abou": 183, "##ep": 184, "pos": 185, "about": 186, "##ion": 187, "##ack": 188, "##art": 189, "##m": 190, "tod": 191, "toda": 192, "##nds": 193, "##ds": 194, "ste": 195, "step": 196, "en": 197, "exe": 198, "today": 199, "##day": 200, "##ay": 201, "da": 202, "steps": 203, "##eps": 204, "##ps": 205, "##dy": 206, "mea": 207, "##ke": 208, "##an": 209, "bu": 210, "bui": 211, "buil": 212, "build": 213, "pu": 214, "show": 215, "##ow": 216, "##-up": 217, "##up": 218, "calo": 219, "calor": 220, "ha": 221, "shou": 222, "shoul": 223, "calories": 224, "##lories": 225, "##ories": 226, "##ries": 227, "##ies": 228, "##eas": 229, "##as": 230, "che": 231, "##utes": 232, "##tes": 233, "##est": 234, "##nge": 235, "##ge": 236, "bac": 237, "##ess": 238, "back": 239, "be": 240, "ove": 241, "##ve": 242, "ov": 243, "over": 244, "##bell": 245, "##ell": 246, "doe": 247, "id": 248, "ide": 249, "idea": 250, "ope": 251, "hy": 252, "hyp": 253, "hype": 254, "hyper": 255, "lev": 256, "leve": 257, "##el": 258, "bar": 259, "barb": 260, "barbe": 261, "ideas": 262, "up": 263, "on": 264, "sl": 265, "sle": 266, "slee": 267, "prof": 268, "profi": 269, "##ll": 270, "##view": 271, "##iew": 272, "hypertrophy": 273, "##pertrophy": 274, "##ertrophy": 275, "##rtrophy": 276, "##trophy": 277, "level": 278, "##vel": 279, "does": 280, "barbell": 281, "##rbell": 282, "tre": 283, "tren": 284, "90": 285, "cha": 286, "open": 287, "op": 288, "##ition": 289, "ses": 290, "sess": 291, "sessi": 292, "profile": 293, "##ofile": 294, "##file": 295, "##ile": 296, "recor": 297, "ke": 298, "trend": 299, "sleep": 300, "##eep": 301, "wa": 302, "bye": 303, "ton": 304, "toni": 305, "tonin": 306, "##tion": 307, "ket": 308, "kett": 309, "kettl": 310, "analyze": 311, "##alyze": 312, "##lyze": 313, "##yze": 314, "##ze": 315, "##ts": 316, "com": 317, "comp": 318, "compa": 319, "##on": 320, "di": 321, "post": 322, "post-": 323, "low": 324, "low-": 325, "low-c": 326, "##ne": 327, "session": 328, "##ssion": 329, "##sion": 330, "##ed": 331, "wee": 332, "toning": 333, "bre": 334, "brea": 335, "break": 336, "compare": 337, "##mpare": 338, "##pare": 339, "##are": 340, "record": 341, "##cord": 342, "##ord": 343, "##rd": 344, "form": 345, "##rm": 346, "kettlebell": 347, "##ttlebell": 348, "##tlebell": 349, "##lebell": 350, "##ebell": 351, "cab": 352, "cabl": 353, "cable": 354, "fin": 355, "week": 356, "post-workout": 357, "##st-workout": 358, "##t-workout": 359, "low-carb": 360, "##w-carb": 361, "##-carb": 362, "##carb": 363, "##arb": 364, "45": 365, "din": 366, "dinn": 367, "dinne": 368, "##ld": 369, "mod": 370, "hea": 371, "hear": 372, "bodyw": 373, "te": 374, "lunc": 375, "corr": 376, "corre": 377, "30": 378, "ban": 379, "band": 380, "ge": 381, "heart": 382, "##xt": 383, "log": 384, "wei": 385, "weig": 386, "weigh": 387, "wit": 388, "cables": 389, "##bles": 390, "##les": 391, "dinner": 392, "##nner": 393, "##ner": 394, "ta": 395, "bodyweight": 396, "##dyweight": 397, "##yweight": 398, "##weight": 399, "##eight": 400, "das": 401, "dash": 402, "dashb": 403, "du": 404, "dum": 405, "dumb": 406, "dumbb": 407, "end": 408, "endu": 409, "endur": 410, "cr": 411, "cre": 412, "crea": 413, "creat": 414, "mi": 415, "min": 416, "minu": 417, "minut": 418, "breakfast": 419, "##eakfast": 420, "##akfast": 421, "##kfast": 422, "##fast": 423, "with": 424, "##th": 425, "wi": 426, "lunch": 427, "weight": 428, "##ight": 429, "at": 430, "##al": 431, "create": 432, "##eate": 433, "tha": 434, "##late": 435, "did": 436, "ev": 437, "mu": 438, "mus": 439, "musc": 440, "muscl": 441, "dashboard": 442, "##shboard": 443, "##hboard": 444, "##board": 445, "##oard": 446, "dumbbells": 447, "##mbbells": 448, "##bbells": 449, "##bells": 450, "##ells": 451, "endurance": 452, "##durance": 453, "##urance": 454, "##rance": 455, "##ance": 456, "bands": 457, "20": 458, "sum": 459, "summ": 460, "summa": 461, "analytics": 462, "##alytics": 463, "##lytics": 464, "##ytics": 465, "##tics": 466, "str": 467, "stre": 468, "stren": 469, "los": 470, "fit": 471, "fitm": 472, "fitmi": 473, "hig": 474, "high": 475, "high-": 476, "exer": 477, "exerc": 478, "##ain": 479, "building": 480, "##ilding": 481, "##lding": 482, "##ding": 483, "high-protein": 484, "##gh-protein": 485, "##h-protein": 486, "##-protein": 487, "##protein": 488, "am": 489, "muscle": 490, "##scle": 491, "##cle": 492, "loss": 493, "meal": 494, "la": 495, "lat": 496, "late": 497, "fitmind": 498, "##tmind": 499, "##mind": 500, "##ind": 501, "strength": 502, "##rength": 503, "##ength": 504, "##ngth": 505, "##gth": 506, "exercises": 507, "##ercises": 508, "##rcises": 509, "##cises": 510, "##ises": 511, "summarize": 512, "##mmarize": 513, "##marize": 514, "##arize": 515, "##rize": 516, "##ting": 517, "later": 518, "you": 519, "60": 520, "man": 521, "many": 522, "##ny": 523, "15": 524, "ham": 525, "hams": 526, "hamst": 527, "hamstrings": 528, "##mstrings": 529, "##strings": 530, "##trings": 531, "##rings": 532, "shoulders": 533, "##oulders": 534, "##ulders": 535, "##lders": 536, "##ders": 537, "arm": 538, "leg": 539, "ar": 540, "gl": 541, "glu": 542, "glut": 543, "glute": 544, "legs": 545, "##gs": 546, "##ank": 547, "##nk": 548, "glutes": 549, "arms": 550, "##ms": 551, "plank": 552, "ches": 553, "pus": 554, "push": 555, "push-": 556, "chest": 557, "push-up": 558, "##sh-up": 559, "##h-up": 560, "sq": 561, "squ": 562, "squa": 563, "core": 564, "row": 565, "squat": 566, "##uat": 567, "pul": 568, "pull": 569, "pull-": 570, "ben": 571, "benc": 572, "pres": 573, "press": 574, "bench": 575, "pull-up": 576, "##ll-up": 577, "##l-up": 578, "lung": 579, "dea": 580, "dead": 581, "deadl": 582, "lunge": 583, "deadlift": 584, "##adlift": 585, "##dlift": 586, "##lift": 587, "##ift": 588, "##ach": 589, "##o": 590, "bri": 591, "brie": 592, "overv": 593, "ho": 594, "pre-": 595, "pre-w": 596, "rel": 597, "rela": 598, "relat": 599, "##f": 600, "overview": 601, "##erview": 602, "##rview": 603, "chan": 604, "chang": 605, "relate": 606, "hel": 607, "hell": 608, "##or": 609, "change": 610, "##ange": 611, "hello": 612, "##llo": 613, "##lo": 614, "pre-workout": 615, "##e-workout": 616, "##orkout": 617, "brief": 618, "##ief": 619, "##ef": 620, "def": 621, "defi": 622, "defin": 623, "gr": 624, "gra": 625, "grap": 626, "tim": 627, "##it": 628, "ac": 629, "act": 630, "acti": 631, "activ": 632, "upd": 633, "upda": 634, "updat": 635, "sett": 636, "setti": 637, "giv": 638, "point": 639, "poi": 640, "poin": 641, "des": 642, "desi": 643, "desig": 644, "foc": 645, "focu": 646, "focus": 647, "ad": 648, "adj": 649, "adju": 650, "adjus": 651, "wal": 652, "walk": 653, "walke": 654, "give": 655, "gi": 656, "gen": 657, "gene": 658, "gener": 659, "sp": 660, "spl": 661, "spli": 662, "sc": 663, "scr": 664, "scre": 665, "scree": 666, "definition": 667, "##finition": 668, "##inition": 669, "##nition": 670, "time": 671, "##me": 672, "ti": 673, "key": 674, "focusing": 675, "##cusing": 676, "##using": 677, "##sing": 678, "trends": 679, "##ends": 680, "hav": 681, "im": 682, "imp": 683, "impr": 684, "impro": 685, "exec": 686, "execu": 687, "generate": 688, "##nerate": 689, "##erate": 690, "##rate": 691, "split": 692, "##lit": 693, "screen": 694, "##reen": 695, "##een": 696, "walked": 697, "##lked": 698, "##ked": 699, "activity": 700, "##tivity": 701, "##ivity": 702, "##vity": 703, "##ity": 704, "graph": 705, "##aph": 706, "##ph": 707, "day": 708, "design": 709, "##sign": 710, "##ign": 711, "##gn": 712, "have": 713, "##a": 714, "execution": 715, "##ecution": 716, "##cution": 717, "##ution": 718, "update": 719, "##date": 720, "settings": 721, "##ttings": 722, "##tings": 723, "##ings": 724, "##ngs": 725, "sta": 726, "star": 727, "points": 728, "##ints": 729, "##nts": 730, "chec": 731, "should": 732, "##ould": 733, "##uld": 734, "adjust": 735, "##just": 736, "##ust": 737, "tur": 738, "au": 739, "aut": 740, "auth": 741, "autho": 742, "improved": 743, "##proved": 744, "##roved": 745, "##oved": 746, "##ved": 747, "na": 748, "nav": 749, "navi": 750, "navig": 751, "tracking": 752, "##acking": 753, "##cking": 754, "##king": 755, "say": 756, "##ble": 757, "don": 758, "check": 759, "##eck": 760, "eat": 761, "##ek": 762, "start": 763, "author": 764, "##thor": 765, "##hor": 766, "i'm": 767, "tab": 768, "done": 769, "inf": 770, "info": 771, "infor": 772, "recov": 773, "modi": 774, "modif": 775, "pref": 776, "prefe": 777, "turn": 778, "##rn": 779, "tu": 780, "mov": 781, "move": 782, "movem": 783, "find": 784, "cont": 785, "conte": 786, "howd": 787, "movement": 788, "##vement": 789, "##ement": 790, "##ment": 791, "##ent": 792, "information": 793, "##formation": 794, "##ormation": 795, "##rmation": 796, "##mation": 797, "mean": 798, "ni": 799, "nig": 800, "nigh": 801, "mor": 802, "morn": 803, "morni": 804, "##nt": 805, "ro": 806, "posi": 807, "posit": 808, "ri": 809, "rig": 810, "righ": 811, "mai": 812, "eve": 813, "even": 814, "eveni": 815, "navigate": 816, "##vigate": 817, "##igate": 818, "##gate": 819, "ena": 820, "enab": 821, "enabl": 822, "howdy": 823, "##wdy": 824, "tak": 825, "evening": 826, "##ening": 827, "sn": 828, "sna": 829, "snac": 830, "than": 831, "thank": 832, "night": 833, "morning": 834, "##rning": 835, "sug": 836, "sugg": 837, "sugge": 838, "reci": 839, "recip": 840, "tec": 841, "tech": 842, "techn": 843, "main": 844, "doi": 845, "doin": 846, "enable": 847, "##able": 848, "snack": 849, "wan": 850, "trai": 851, "modify": 852, "##dify": 853, "##ify": 854, "##fy": 855, "position": 856, "##sition": 857, "recovery": 858, "##covery": 859, "##overy": 860, "##very": 861, "##ery": 862, "wr": 863, "wro": 864, "wron": 865, "##end": 866, "recipe": 867, "##cipe": 868, "##ipe": 869, "##pe": 870, "from": 871, "##om": 872, "fr": 873, "fro": 874, "tex": 875, "are": 876, "sets": 877, "context": 878, "##ntext": 879, "##text": 880, "##ext": 881, "suggest": 882, "##ggest": 883, "##gest": 884, "##ute": 885, "technique": 886, "##chnique": 887, "##hnique": 888, "##nique": 889, "##ique": 890, "rev": 891, "revi": 892, "revie": 893, "his": 894, "hist": 895, "histo": 896, "sw": 897, "swi": 898, "swit": 899, "switc": 900, "no": 901, "nor": 902, "norm": 903, "norma": 904, "thanks": 905, "##anks": 906, "##nks": 907, "##ks": 908, "right": 909, "and": 910, "text": 911, "correct": 912, "##rrect": 913, "##rect": 914, "##ect": 915, "##ct": 916, "doing": 917, "correctly": 918, "##rrectly": 919, "##rectly": 920, "##ectly": 921, "##ctly": 922, "dat": 923, "wrong": 924, "##ong": 925, "jus": 926, "fini": 927, "finis": 928, "want": 929, "preference": 930, "##eference": 931, "##ference": 932, "##erence": 933, "##rence": 934, "review": 935, "##ew": 936, "history": 937, "##story": 938, "##tory": 939, "##ory": 940, "##ry": 941, "take": 942, "train": 943, "mak": 944, "minute": 945, "##nute": 946, "rou": 947, "rout": 948, "routi": 949, "conf": 950, "confi": 951, "nee": 952, "weekl": 953, "rep": 954, "repo": 955, "repor": 956, "data": 957, "##ta": 958, "normal": 959, "##rmal": 960, "##mal": 961, "just": 962, "ju": 963, "int": 964, "inta": 965, "intak": 966, "prog": 967, "progr": 968, "routine": 969, "##utine": 970, "##tine": 971, "##ine": 972, "minutes": 973, "##nutes": 974, "goodbye": 975, "##odbye": 976, "##dbye": 977, "##bye": 978, "##ye": 979, "goodb": 980, "##port": 981, "##ort": 982, "chap": 983, "chapt": 984, "need": 985, "ne": 986, "make": 987, "mode": 988, "##de": 989, "switch": 990, "##itch": 991, "##tch": 992, "there": 993, "##ere": 994, "ther": 995, "weekly": 996, "##ekly": 997, "##kly": 998, "##ly": 999, "report": 1000, "tar": 1001, "targ": 1002, "targe": 1003, "finished": 1004, "##nished": 1005, "##ished": 1006, "##shed": 1007, "##hed": 1008, "progress": 1009, "##ogress": 1010, "##gress": 1011, "##ress": 1012, "##ild": 1013, "configure": 1014, "##nfigure": 1015, "##figure": 1016, "##igure": 1017, "##gure": 1018, "exp": 1019, "expl": 1020, "expla": 1021, "conc": 1022, "conce": 1023, "intake": 1024, "##take": 1025, "##ake": 1026, "tld": 1027, "targeting": 1028, "##rgeting": 1029, "##geting": 1030, "##eting": 1031, "cond": 1032, "conde": 1033, "chapter": 1034, "##apter": 1035, "##pter": 1036, "that's": 1037, "that": 1038, "that'": 1039, "condense": 1040, "##ndense": 1041, "##dense": 1042, "##ense": 1043, "##nse": 1044, "all": 1045, "prep": 1046, "can": 1047, "explain": 1048, "##plain": 1049, "##lain": 1050, "meals": 1051, "##als": 1052, "##ls": 1053, "evi": 1054, "evid": 1055, "evide": 1056, "sup": 1057, "supp": 1058, "suppo": 1059, "tldr": 1060, "##dr": 1061, "tl": 1062, "concept": 1063, "##ncept": 1064, "##cept": 1065, "##ept": 1066, "##pt": 1067, "##tting": 1068, "evidence": 1069, "##idence": 1070, "##dence": 1071, "##ence": 1072, "##nce": 1073, "supports": 1074, "##pports": 1075, "##ports": 1076, "##orts": 1077, "##rts": 1078, "get": 1079, "gett": 1080, "getti": 1081, "bet": 1082, "bett": 1083, "bette": 1084, "better": 1085, "##tter": 1086, "see": 1087, "getting": 1088, "calc": 1089, "calcu": 1090, "mac": 1091, "macr": 1092, "macro": 1093, "calculate": 1094, "##lculate": 1095, "##culate": 1096, "##ulate": 1097, "macros": 1098, "##cros": 1099, "##ros": 1100, "##os": 1101, "##u": 1102, "##c": 1103, "##ou": 1104, "##at'": 1105, "##t'": 1106, "##'": 1107, "##ie": 1108, "workou": 1109, "##rkou": 1110, "##kou": 1111, "##ar": 1112, "calorie": 1113, "##lorie": 1114, "##orie": 1115, "##rie": 1116, "breakfas": 1117, "##eakfas": 1118, "##akfas": 1119, "##kfas": 1120, "##fas": 1121, "##nc": 1122, "fa": 1123, "##gh": 1124, "##i": 1125, "##io": 1126, "##ac": 1127, "##nin": 1128, "##ee": 1129, "analyz": 1130, "##alyz": 1131, "##lyz": 1132, "##yz": 1133, "##z": 1134, "##cor": 1135, "##-workou": 1136, "##workou": 1137, "##ai": 1138, "dumbbell": 1139, "##mbbell": 1140, "##bbell": 1141, "summariz": 1142, "##mmariz": 1143, "##mariz": 1144, "##ariz": 1145, "##riz": 1146, "enduranc": 1147, "##duranc": 1148, "##uranc": 1149, "##ranc": 1150, "##anc": 1151, "dashboar": 1152, "##shboar": 1153, "##hboar": 1154, "##boar": 1155, "##oar": 1156, "##-u": 1157, "analytic": 1158, "##alytic": 1159, "##lytic": 1160, "##ytic": 1161, "##tic": 1162, "sessio": 1163, "##ssio": 1164, "##sio": 1165, "##il": 1166, "##tin": 1167, "kettlebel": 1168, "##ttlebel": 1169, "##tlebel": 1170, "##lebel": 1171, "##ebel": 1172, "preferenc": 1173, "##eferenc": 1174, "##ferenc": 1175, "##erenc": 1176, "##renc": 1177, "##scl": 1178, "##cl": 1179, "profil": 1180, "##ofil": 1181, "##fil": 1182, "##if": 1183, "navigat": 1184, "##vigat": 1185, "##igat": 1186, "##gat": 1187, "##itio": 1188, "concep": 1189, "##ncep": 1190, "##cep": 1191, "##nne": 1192, "hypertroph": 1193, "##pertroph": 1194, "##ertroph": 1195, "##rtroph": 1196, "##troph": 1197, "hamstring": 1198, "##mstring": 1199, "##string": 1200, "##tring": 1201, "##ring": 1202, "finishe": 1203, "##nishe": 1204, "##ishe": 1205, "##she": 1206, "##he": 1207, "##itc": 1208, "##tc": 1209, "configur": 1210, "##nfigur": 1211, "##figur": 1212, "##igur": 1213, "##gur": 1214, "compar": 1215, "##mpar": 1216, "##par": 1217, "strengt": 1218, "##rengt": 1219, "##engt": 1220, "##ngt": 1221, "##gt": 1222, "barbel": 1223, "##rbel": 1224, "##bel": 1225, "pull-u": 1226, "##ll-u": 1227, "##l-u": 1228, "##jus": 1229, "##us": 1230, "##da": 1231, "chapte": 1232, "##apte": 1233, "##pte": 1234, "explai": 1235, "##plai": 1236, "##lai": 1237, "##int": 1238, "##igh": 1239, "contex": 1240, "##ntex": 1241, "##tex": 1242, "##ex": 1243, "##x": 1244, "##dat": 1245, "exercise": 1246, "##ercise": 1247, "##rcise": 1248, "##cise": 1249, "##ise": 1250, "buildin": 1251, "##ildin": 1252, "##ldin": 1253, "##din": 1254, "##tak": 1255, "##ak": 1256, "pre-workou": 1257, "##e-workou": 1258, "##orkou": 1259, "improve": 1260, "##prove": 1261, "##rove": 1262, "##ove": 1263, "setting": 1264, "recover": 1265, "##cover": 1266, "##over": 1267, "##ver": 1268, "##ap": 1269, "post-workou": 1270, "##st-workou": 1271, "##t-workou": 1272, "low-car": 1273, "##w-car": 1274, "##-car": 1275, "##car": 1276, "##ua": 1277, "##sig": 1278, "##ig": 1279, "##vie": 1280, "definitio": 1281, "##finitio": 1282, "##initio": 1283, "##nitio": 1284, "##eat": 1285, "##tio": 1286, "fitmin": 1287, "##tmin": 1288, "##min": 1289, "by": 1290, "ea": 1291, "activit": 1292, "##tivit": 1293, "##ivit": 1294, "##vit": 1295, "yo": 1296, "shoulder": 1297, "##oulder": 1298, "##ulder": 1299, "##lder": 1300, "##der": 1301, "##dif": 1302, "progres": 1303, "##ogres": 1304, "##gres": 1305, "##res": 1306, "##rma": 1307, "##ma": 1308, "##ekl": 1309, "##kl": 1310, "##por": 1311, "trackin": 1312, "##ackin": 1313, "##ckin": 1314, "##kin": 1315, "targetin": 1316, "##rgetin": 1317, "##getin": 1318, "##etin": 1319, "##ea": 1320, "push-u": 1321, "##sh-u": 1322, "##h-u": 1323, "correctl": 1324, "##rrectl": 1325, "##rectl": 1326, "##ectl": 1327, "##ctl": 1328, "##ec": 1329, "gettin": 1330, "##ttin": 1331, "bodyweigh": 1332, "##dyweigh": 1333, "##yweigh": 1334, "##weigh": 1335, "##eigh": 1336, "deadlif": 1337, "##adlif": 1338, "##dlif": 1339, "##lif": 1340, "##tho": 1341, "##ho": 1342, "informatio": 1343, "##formatio": 1344, "##ormatio": 1345, "##rmatio": 1346, "##matio": 1347, "techniqu": 1348, "##chniqu": 1349, "##hniqu": 1350, "##niqu": 1351, "##iqu": 1352, "overvie": 1353, "##ervie": 1354, "##rvie": 1355, "focusin": 1356, "##cusin": 1357, "##usin": 1358, "##sin": 1359, "sugges": 1360, "##gges": 1361, "##ges": 1362, "##nut": 1363, "high-protei": 1364, "##gh-protei": 1365, "##h-protei": 1366, "##-protei": 1367, "##protei": 1368, "positio": 1369, "##sitio": 1370, "##lke": 1371, "##lat": 1372, "##ang": 1373, "generat": 1374, "##nerat": 1375, "##erat": 1376, "##rat": 1377, "executio": 1378, "##ecutio": 1379, "##cutio": 1380, "##utio": 1381, "##wd": 1382, "##cro": 1383, "##ro": 1384, "histor": 1385, "##stor": 1386, "##tor": 1387, "routin": 1388, "##utin": 1389, "##cip": 1390, "##ip": 1391, "##li": 1392, "calculat": 1393, "##lculat": 1394, "##culat": 1395, "##ulat": 1396, "mornin": 1397, "##rnin": 1398, "i'": 1399, "##ree": 1400, "##abl": 1401, "##bl": 1402, "support": 1403, "##pport": 1404, "##tte": 1405, "##oul": 1406, "##ul": 1407, "evidenc": 1408, "##idenc": 1409, "##denc": 1410, "##enc": 1411, "movemen": 1412, "##vemen": 1413, "##emen": 1414, "##men": 1415, "condens": 1416, "##ndens": 1417, "##dens": 1418, "##ens": 1419, "##ns": 1420, "sa": 1421, "evenin": 1422, "##enin": 1423, "al": 1424}, "unk_token_id": 1, "cls_token_id": 2, "sep_token_id": 3, "pad_token_id": 0, "mask_token_id": 4}